f411fbf80effe86eb8f3c 004085efe1881bd001e80
03feb818507ee780f9038 1bd040076002f42e020b8
df724b088d88f883ba2b8 ef71bf046f7e10123c0c6
f3cec3ffa03707fd891f9 03efc4f7d1871c3e3a27e
d47105f46e04ebef440c2 bb5d7a2f5143102136f3f
040eb918203f100f7f03b 100f02ec3ec608303a0c6
c7ebc5075fc5031ff7ec3 288111cfbd3a1c2e480bb
d861b8e45c4a1bfdbc146 f7ce0113e13c0bddfdf81
04b3b01c103924f146472 2fdc46f4a0ff180085e0d
300f80e843fc03ce7d0bd f36049f0603c0cdebdebc
0370fc13cd40dc3efef86 f4223fdbe1c0e82fbd27c
0051c0e81144f0224a037 e81ec32b1049487ef9235
1c3fc4e44cc8e37d38f78 f77dc11bce781bdf02037
ef5fb607e0bcfc23bbffe e70f42d76f80bc6ff65f5
0c61060fbfc4ec1e7ffff 140ffeec2f7d179efef39
03bf022fce3ce7a0cee7f dbffc303cf00e491752fd
2f3231ec4005f07ec0236 0f4e3a087ffbfbd245fc2
cfdf87f3c300182e86f41 f86ecdf04f8b02ee32283
e33eff273138cc10bb07e cb30f304424bc8d3b1339
ff8dbefbe0f30bcf060fd 1460f7e81141f8834ae83
278dc217fec1e77f42e7f 23f145ffbd86e892471f4
0beec3039101f011bdf7e fbc2371bfe42ebcf43f3e
180dfdec402c34114b179 dc6e3f0bff0af8703adff
dc9ebd17bfc3082d7b182 e470c0106dc40c51c3e09
f4cb0027d140e71005e3e 28ad87fc2e32048102274
337126ffadc1e7c0fcf44 4caf00041c09088248cbf
dfb04208213febe0bd108 fc900a13bfbcd4308a1f9
0b90b51c8d3e1c9f80073 182f49f90dc4f78245f3e
f4af7ffc403efb6f42283 fc40fedb6189e472fdcc5
dbf13ef09009088ef7f79 0c0fcdcc31eff7823cc47
152138f4510913ee01e3d 206206cf9eed20514137b
287f8007a309eb7fbf13d cfef81e3a07f0361000fd
1bce450c2042e87031e42 100ff90bdcf62092c5fb2
1bc145d8de77cff53327c f7c43123738ae156c8ff3
140f032c7e443fe042fbc 03ef0bc44f7cf07fb6f03
fc407d1f5f8217ac0eec0 f83e0323ff4ff2ed7b0fc
006ff10c400cfc6146104 efdf01e7ef79ec013f244
f1116fdbeeb8dc8d34f45 309ffde362f00c5dfa2bc
281fbe0ce17c0f7f7e081 0c9f41f450bfa8364f1c9
0be243f7d046cb213bcff 20bfbb370e0708c00702d
a82285081f48d03fb7f7a 14004af340c228b078eb7
2f2f8e1bcfe7def2b5cb0 304cb71ff184d48180140
f3bebb083e430ff0fbf7c 1fe03e003f7aefaf82fbc
084438f390fe080ec51b4 c7af6b23c1911f9db5f3f
0841f1381fc71c9dff0f7 cc304c03cdc00f10b8ecd
c85fc617df81108f3a0c5 f01dc8fbdf852030c1f03
d7ffcbefa276288d86ec5 087189ebf2fd0c6187dcb
30bcbc13ee420f815213c e880fee03ec110108107f
0fed7d13713dffa0bce31 dfadc5f7df78179ff037d
002079f4d1460fc07eec5 0fe1fce3b171205f43007
f471792ff1bc300ec0e2e f48c88b44180eebd7813f
03d14013b0bf079ebeefc 13bf7ef84ebd083206145
149dd0b81cb4dffd7bd06 ebb141ff602414e0faf73
002e7bff8e3a079efe200 f3fec20841860f5e84f86
efa0b9d85036fbafc9981 1441c81c5ffbc352cf279
239ebf043dc6fbcf30dba 27bf03100f83efd208083
07c0432fae81008209f72 e46efc0fcfc0cc22c21c2
5cadc22b4eb803830e1bd 2c5eba305e4a1c2db8d8b
0beebe286e0b07e0fb244 202e7cfbfe7b1c2143f3d
f830c2ebb03af39fc4efc 13b03af391420f9ec2e80
2ea20bd06ebde80f31070 fc1fc3405e76d0243ee48
f02387174f74ec22c21b6 efee81ef908ceb7cf3186
137d38140e810c3f40034 143d8f17df040fd1c8ebd
e3fd0bf3be7ae071ad009 1bbf05f7ecb42cfff9f87
1c5128107f40243fc5236 23bebd00f1bd1f9f85f41
f450c2ec6f43e46e8503c 03dfbbf4617e1811bb000
07c38637bec0f0b13e07d 4450820fa391f09f80339
000fc7043f3927d083f05 f7fe7327d2bdeb20fb1c1
f7c0bff74e33002001201 177077ebb37e385005fbf
1f7dc0d3a2460f207afc7 1c6044ec1d44cbcf49d39
2c8f72134e73fc91c93f7 27f13c2fdfd1102e3a2f9
b862cacc0f03e8d1c10fc ef3f7710008034b000eb4
142ffb002fc50bfff913b 046f3a03d1bdf02046081
f011831810750171533f9 f81d6d0783cf3c6db5b48
dfd1c4dbce730c3f55e85 0470f6d38485eb608433d
c4003700b04b1c5f80e84 fbb0f1c37344fbddf723c
202def0c510033ad04e83 e0500db4713622ee40f43
47c0b7002e4d13f27b131 f72f7afc7e05d04382e87
18614613efc30fe17eebd f86044fc0f87fc41c0f84
ec0d3b2751770fc0cf147 e8913aefefc11f8ffc303
100ff41f5ee6fb61c9d6e 0c9e071fb188f3cf4237a
c37efe17f043e7af41c79 040d86fb8004cbb0f8234
f03ef31c2181fc0f4a145 d8e1331f338d1450441bd
03be712be03d33fd41f0a 147d4adbfd86e40f0117b
efa1bf0020c303d0bbec3 106f0100007d03af46f7f
efacc3306f761c3fb9ec5 f36e51d51f3807a078b8e
b3d40be08102ec107603f fb6f3b2702c0f4e389070
13eff8c87d4708c17d043 ff5f7c1be246140088a06
e83239f3ffc0e88080086 b39dafff42462fce41ebd
13bda81f804303fffd006 2430d2d08f39f42fbf087
17d03a0ff147fbe103081 f40f8413e042f7f17a17b
00003e0b9f06f810c5f42 f7810613eec2002043dc5
2842300fa1ca0f7dd7302 250102fbf042201d0407f
f431cce3902dec9fc3eba 2000b12fa03dff91ce2b3
084f7cefd147f7cfc2fc0 f790c3040082f06f40f3d
ff33bbe4333a3460c50bb 106ffd2c9082db8042044
fcd06eb3afffc012c2dfe ff5e714ebfcd446bf9faf
ee70c1cf1e8214bf38ef8 137f463ffec9ebde3ff47
ec1f7a080e81ebff3b040 0001451fff3ff3c140f3f
148e7e17d1430bce831ba ffb005040eff1bde462bc
ebcdbe083ebf1c32420bb 141d4820ce0817c13e142
f44ec4dcbf31cb42fcb40 04a0460f923af4738f431
1b50382c2d78249201240 1c0105f851c9cba24a14a
f7fd440b81fb138d4703c f031850ffeff1faeba0c2
17bcf6ec8ff903dc86ef6 0bbe47f08fc10ba14b089
37a1beefdd862baebf0eb f41fc214500417cfffd8b
142efbecb08218cf4c338 ec8d080c1086ef328ab02
1b8ff81c5e4d03dffddfb 036fc330cdfbfc6140046
e410bc141f46383e3f1bd 3bef90b08fb7f75f85dff
fb918cebff04240d8a287 f42d7e03f283f7c148f45
e31140ecdf46084e39ebd e00eb4107337ff5fbe23f
0811fb279c712d0487439 2ca03ed8619903e143e85
e28b860c8187afc1b1e48 142e76ff4083e562811b8
17fffed77de9ec52011b3 03c1fb336f4410aec0e3f
a04f46e0afbdcb313fdc1 e78fbbeb423af841fb27f
040ec103a2ee0ee087cc5 2cbf0f0fc081144f4c27d
f880821060c9182dc9385 076e7bfc3f85104086e41
f86f4607e0432c3e00289 147246e7cdf93f5e3d203
24b08a0be0c0ef8f34f48 100fb50bf201e83236304
e3916d206e48f01ffbe00 d7fdfe146f74e41e313c0
0c0044fbd0fa006e89ec1 0041010050c61be187fc6
0441800410c8e83f4403e 001fc4f7f0fdf8414107f
1b6200dbb03d101212fb5 ef2e47ef2fc3047f3e546
b80f7d1411b3e37fc1104 f44ff9244d89f3ee8314a
e3b0bf1bb0fef7928be39 d3c24e0f6ef8eb830208e
f00fbe04107bf45f3ff7d ffaeff143efaffaf85101
0411fa2841b10f90011fa 142041fc9fb5f86e05ec0
e7eec81801bef8011113d fc42403490c31fc1affc9
c3323a16f18ae41189088 1ed077179f09f1003b0c1
f03e07e862003c11c9176 fc2f7f252f3d43c23ae8a
13a002ef8ec7ffff85f03 002ffd08ae8ae45fbef7e
c0413ef7f24c13c1471c9 fc61c1104dbc142f43045
00fbbb14303cebbfc7e3a 004208281dcdf3a2b9103
2374f5076f104c530af0f 2b5fc3d86fbd038d5518b
17bf8503c101fc6ec4f7a f3f186f071850c613f03e
eb80fafbb18533b2f9241 040e070c52fe1b62061ce
cf1a7b089d46dc6dc92c8 f060c1df7e41b840faefb
fc9f0f0371c3ec0337dc0 c72e74fc0f34441f7bf03
1f3235c773102fc38030d 4fe0f7cb71d1037011356
408e87dcbcbe1bbc030ba 435eb1e400beeccec1fbc
e7e0fc0ca0742c1ebc047 389d79183109ec2d41e80
1bccfaf45ffcefbefc1be f4834b3bf00c0fa33df42
f03fbdd76f412fe3082fe db5082088008ec1ebc13f
fc6f751f923cf84184efb fbd046004ff3f47176f88
04b04a0422f9e3ad8213f 038f36089eb108dc81000
045004314e080c3c78f09 57dab3d00eac007c47073
04f14bef9333ec12f8fb8 ff60c80c8fc2dc81cb0cb
f3be7f04403ed3500313f 23df80db9e80e0bf75075
08bef7f38d7d1bde49c87 103042dfae45e81047f77
105f410061042bb149a7f 072dbb07bec000003d142
f7afbb074d93f43e06c03 139ff308d0badc9fc21b9
d401f9dcb14903a244fbc 1c32fe0cd0111c208700b
e40dc528bf7817cd84142 2fdf88100049f07dfe104
efaf390ff0cf2fb106292 478d48cb50952f1dcd20b
f03f80ff627607f343d3b d01206f3d081f4108d289
13ab40ec507ab8013917d d861890b9ec1fbc033fbe
d0000edf9287f78f46083 ff5f7113fec4ecaebb2bb
209fc904233cd02f06daf f42fa830cefaf5003adb7
f44026e37c7b2bfbfdb88 df6f441bbff833d30cb03
fcd045f890c3ffbffa1c0 18717fd36cf4d820b7dba
dbb18718014af3d140c43 1b503d189ebc0c2f8123e
dc9082dc6f722fce2e03b 0c9cfdff81f917ae01f81
1ba0fd18007c14007c1c6 fbf18103c104e83007ec6
cf0fb1f83f0707910e304 0cb4b7f87084d3c288003
e7c07adf30fd13b200e79 c89201301f7ff8707b010
f85ffedbdec107b13ae82 13a13e079f3e0851c023c
13e13bff5e02ffc0c2ff2 075fbcfbdf78dc7279dbe
d8317df01fbc0fdf3cf8f 1402720c1d800c6fc00fe
cf9f3e102331ec21c4032 e42285207fca172dc31cc
07dec01871c0041f48efa ec2ec418aec6e84ebc081
0040bcdb930cf78fc1c04 0063801cce7a17dfc7e8e
f47f01f3af7e1c4042145 1c113aec3ec6f44ffe081
fc20bd205f7b2ba092fed 2c614b254e842412f4091
f8ae390411b3ffc145ef7 f3e246076cbdfbc17a082
049d7ae06ec4fffc3af73 2b4dbb104ec5ffc181c07
248d87149ebcd7ad45047 04704c1c2dbc046ff4c02
10bf04f36f40efc23aec2 0a908a10403c138fc0ece
209f4820afbef7d078100 47c072f350c2e89f07f76
9090fde3c0f5f7e2c3f44 f3df3ffb6e3e04b13a181
180f861bb07fe0604407e fc5f830c70c4fc4080e3a
e4bd06087c3914517eb2e f43e49ab01bc03b379c05
b03007cb1248e363b60fc f430f20baf0927ee3ee83
fc5c81006175e401b717f e87087fb8dfd03b17a185
27a0c2f8c0821bac4637b fcdfc803714d104ec7183
f74cf7d41080d7fd89204 effe7de7df3ce05174efe
183083f461c000317cebe 004efee84ffdf860fcebd
e03387e3004af3c0bb047 139c79eff031240dc633d
0f6239f3df813fb1c60b1 03908304820417040cdc9
e3af46036e4707bfc2301 24503714903d08c1c2f7d
208d7df12c3df7ac7c148 089f3e1400030fce89d40
e2fe8be40487db8def256 139e81e821c207bd04239
03df401bff060fbd0a1fe dbb107142cc2e45ff5143
103fff0860fcefdfbb179 1fcfba23ce86ebf040044
a41f48337bb40c02424fc f7227eef80f9f09130478
f3a0bbecdcfc0fee421fa 07be3204fefbfb3104cf5
d7d26adf3ff70fd2161bb ff753e284f330c8341001
f80e01f02134df8e01e04 f0c28307d1bbf02fb5ec6
0fbcb5f3bf4417ee80fd2 0491bfcbaf450c2287200
045f44ffddff13cf7deff fba0fdf82f401bc006ec4
cbfe02b0613af7903f142 088475104f41d81104e88
18de4be8bf3ffbecb8fc6 1c3fb328a084e7bf01efb
14808efb4001040f04c3f eb6f8aec2db20800b7fc1
e4143b182ec647c041002 07e0f70b5e3ffc4fc9242
e35ebef02175f7a184f47 f0c2000bde8607e1c0f8b
0c30faf7d0bb18103debd 044f03e3a046f3f0c2f41
0ee089f7427ffc007d006 e072d7ec0f03088c84e8f
e3c17b1bbf0c2bd088dc9 f7ee04f08ffd17804ef0c
2bff38241d0b03b182086 0f3e4a07ac81002044041
b4b008f89dc21bde892c6 f80300141dc5dcd180280
20a0c3db9083f7cf7513f 1e8e3f084f3ff06d82088
0beebb0c1f7f186f7ff00 ebbf7f145180f7f0c10c3
0c2ec3f8704117d0bd101 f4023d13e0891420bdef9
e0edc4d0123eac31b4082 10b1270c1fb8f45e03d3a
0c3d76f0ddbaffddc50fb 042fc6083f40f400efe3c
e06183f85fc7f870ff07b e7e1851c80401810bcf84
0bfb8bdb41faf7de80e79 bfd145085fbce75285e88
047ffff87242240083588 107fc82c0e4edfe1c218c
07ae3f040e410c2e850f7 dc9e85ebf1ca084df6f3c
ffe1000baf3fffa081e43 03b101f3d1871c4f3b005
17ffc6ebe0831860c603b fc3f44e7ffbffba04307c
f04db9db7139c3a243f37 d7f0c0eb9d85e3af7df3c
f8ffc50071be1f8efac6c 239e7c00af833fa14abc3
2350b803cc480fbefef46 2b7e3ad331d11b6b930b4
f41f45ec81b2eb9ec80f6 f09303347f0213dfbedc4
dfbfadf0aef80c3f42001 f38fb7fc1206d87ef6cbf
e3aeb213e1090441fb105 1c5086f811bfeb7f85ec6
e0ab41f7ae87dc503a001 f2b03fe33e2dd7e1ffe75
cc3e83206f01fbc043080 145fc6cef0f8e452bd1c0
2bdf3c1770d3d7c180b82 fbcfbff89037004b83ffc
d810090c4fcae7f237f7f cbafc9fc40b9e7e1c5d04
1f9f35bc2fbe23c28bcba f7d388040e7dffa3f9e7f
13c0c0cf3b3917f0792c7 fb1dfeb6c1022f9ecb276
ebe43b243037240d41fb3 e7fc4a1c5f7a034dc01c9
e07042efd0b52011c420b 0cb1c2f87eff1be106e83
cbbff1f78fba2bff8bb3b 13f28524a27d0c118be07
20dc801870b817fc02f74 1c1dbaf7c001d8bcbdc36
abe2832c21b22fa1c8fc9 e34005efb038fbe23b27b
07d3c6e401f7df81c11b9 f3b1c1305d7dd4efd0003
dff4b21440fe3c3080f42 1fd0b40c634f083ed0146
fffe87d42276303085241 e873440faf05e81fbcfc5
0ff13bfc10c01c2f3d048 efd140f46fc71c5f82085
f810bb0c3dc8f3bf83db9 187184dfaefc0420c7282
1bf102fc42bc20c1f70f9 e321c4dc814aec3f87f80
0bc1371bd107e01144dc1 142006245f8807f1431be
e4123b101d80042f830f3 00518b046f45e031fbe41
fbf005186fc1f4017e07c 0feebb140e46fbef47fbe
e41f04e0804df0100ff42 f7bbc5e7ee360fdebe285
177f05288f842c60b92f8 001ec0fbb0cc040effe84
efae01c4a07aefd1baf81 f3bec8f830fe0752c5cfd
d46ec8e73dc2c431bbefe 17cdfb4bbf77041e0a079
07cf4718a0492472791c5 10c2c51021cb1c8089eb8
040e790bcebaf381ffe7c eb70360b8e89f02281006
b3be091c2e01200101e3a 0fbe090baf813c20f91c7
9c4e01fbfe011c63faf4c 0fd32bf0d1ed06f14f02d
0bdefb0f9f87f8317e07d f86179fc1f04f44f831c0
0021bcf4513a0ff1470cc 0c0f84eca2c9fc3142e81
2c0f0410e04610412e27e fff0b4e7708a13b2c0f04
ffbf6c00507acbdc50078 20408af4d036f81e85efe
f06276e7edbe0be0fde1c 0b60f3dc5539b3a7d537f
2bef84eb4f07f811b0cc6 effdbe13a2bff00f07202
1ff14bd710c108a272d07 035dbd141ec2302fc637f
1fbf0bf42f09ecaf491b9 0021ba2020bf27e03b0b5
13acc1046f3dffef3fd06 f3014a102141cc2fbd039
ef9fc8f03071038c87e83 e72e7d185c6e0811af0c2
338149cfc0b2df823edc3 ebd140c3ff81f41bbbf49
fbcf43db4081844fc9ece f8cff3d7b282079dbf10c
0ba0f8d85dffcb90c3081 ebb203f8bdbbf46176047
0c10bb0012fec8a100e89 e09f48f06188202ec4e40
dfef900aef780f4cebe86 13ec39237e69239f09084
0bbf490c503d0fefaf0c5 fb8d3ef08180076e40d00
ec3f06f4ce4af80fb22c0 077fa90882fc06fd48cfe
e3cffeffa186e05005efd f3917820704207e3c9078
f41e4ae870ca04d238d82 e3ae82ec00ca1bd03bfc7
d87d8a3f8d823842c51ca f0644627c205f451c8305
0bef7ff0807ae86281cbe 079cc7fcb1000fe137d74
ef702a1c4f04fc5e802c8 f8ce362c1046f0407607f
240f09048f3dfc3332df7 f38b751c8109f82d8eeb9
13cf84ec2ecd074e461bc 1baebcfc200107ed8107b
e0108614bdc9240037fba 086e77c4a13efb8ec9b00
1fe00b178cfbeb4d0d0f7 ec2450bb5ec8044184205
efe18213a17802ed481b7 efaf41d381b0dfc1c3144
103ff61cbe8524118517a 04838107ae85cc307d2c3
1830450840c2f05ebdf80 1bb0c2ef9f4404713d13e
fffd430fabce100e7de35 f03db0576001eb12c5f7b
c82ebfc7e040cfa276d79 eb1f09086dc0184174df5
e81104fc71afdf7003efc 0fb147e05c37ec1035209
27a03e0fb080138efc13a f3edf8f43f74fbe036dba
0bbe40dae182dffeb9ed0 104fb327dec103103cff9
bb8e39e81f82f033869bd e78c4b2c90be0fcf0a12f
284f3d10208afc5e43fff 10310807a13c039004e89
b000b5045fc91bf03b23c ef9c8824b1351c0f42f34
04513cebf086ffcf3917c efef01ebc13dfc5185f7d
dbe11123ae8c28d0fffe3 ff7007242f4523917a0c6
fc10fc17b1b9f07efed82 ec4184ebecf70860701c6
d05efa108c49240b0ad8b f8437af012bc2030c3208
ebb0c0244e0d20817c243 ec703cec5103201df2146
eff0fe003db3e3efb9ec6 e0228df06ec2f4723efc3
3fd041d0007ed8a0c118c 03b0891aec8e209e7f1c5
2f708af3ce6b03e2fadb4 fc504aef613fffa13bec4
0ffffc203f0410403de7b 0000c00c403e0c213af7e
140fcc40b07853dbcde7a dfa40ff04e45e123b60d0
ec0e31e84e6ecb8009c79 eba1c9043bcae8a28317a
e42f831090b9f03184dc4 e880cdf89dc6189df60cd
fbc086e840bde803bdfb5 fb50c79fdb82241ebf0fb
0c1e3ff82f07e841760c0 e480f8102fc51f6f8b07f
1390fef7aec6f80eba0bb 17b0bd1040450c3ffd047
038e7be05fba0f50b6e4c 030079d8e1bdef9e020c1
efa3c134908510acfc0c3 149dfef8d483f012c3ffc
383f430c3dccf78ebd1f2 eb320117b182e33ec6f78
0ff0092c538c07fec01c0 185ff42bdfbc47a0b514c
0fbef5e46305fd335144a f02202ffd34ad3ec0213a
f7ad001fa27e30407a235 075047eae00bf87eb7f8a
ffd0c523a13cfc2f3cfb9 f00fbcff8f3ef00040f05
500e42e422acdbcf43e7a 082095eb8248d401b1e88
0c103338bf0a2b7b8718c 1333f52c04c1d7be0d1b6
3fde4927fd05dc313d1f2 0400804bf2f6f380d0c6c
f7c03d07cfbd14af38d79 13fd7ef8efc0189ffcef3
f3c0baf002fe08de7cdc8 0ce07c0fbd42e3524013e
fbb046100000e470000c4 183efe0c10c0003e7cffc
139e7d127d3cfbbd48e0d 0c9144438dc6f0003e237
0b9db7cf2104d83bc124f ec01fe2fd0c2dbddbc202
0f9d7728afc733e0c6073 e42347ebe2bfeccd82cca
1ffe7e16ddb3037fb9f78 0ca046302241b4bf41fca
e39106178044e85f75e7e 081bc1009f40137206fb8
1410ff0051bff06ebee80 0c3005e81ebe03bffcfff
fb9033e08200e90ebffb1 f3ecc7f0a1bf053077db9
cb924a03fb3c0fff691b9 ffc174cc41fee39271c45
1fdffc2c7f7f041f39248 e47084dfc08d239f32e7c
f81e011b403af39003d3a faa1481f4c4100338720b
e42002c47233d000fdf8b 0fdc0408913aebdebc13e
f810c017ae7ff390ff039 f4307e23defb187ebdf3f
002006182fc2f021befc2 084e8304013d003f7a03f
f40ec0dad040c83c09107 e4dac237afbc0c107e1ff
13bd380c3f822c3f8627d 13b2f8f38189f43e7c285
20303bf85182fc2e8417f fc1102fc4180e840bbf42
efafbb1d21ca240db9245 e02fbdf4c007d8307bec1
f7704027cf4943b0ccfc1 f6c0c6fabcc4d8c10540f
1fccc404927d1830062fd 032203e43ec814227e07d
08613d085fff03a0fa1bc e831c3ffdf83ec610413e
ec317cefb0030bd1bd001 1f90bffc40baf3f03d0c2
00003108a241ec4f44e01 f7d188f03e010831f3ffb
ffdd860fbbc11f7e49f05 0b6049ffc13ad09a01390
fbc0f8cc92040cc36ef48 f40e7aecc344072e4dbb5
07ae7b03ee471040c3cb8 fc3d45303fc30c413407e
f7d00904318c1c3eb4089 e781400b7dc217de46181
dc117e048f8124af7e2c1 e0108514208b1753bb086
0b90fefc12f307cbc0e49 e81f7b042f85d40fb3dc7
0c2205efe12cdc92c0dfb d44208188d42084fb9ffd
f7ffc0d44f09cc40f63bb 089e81c8c2342b9c0dc74
000f471c6f0217de82ffb e8217c042e8203e278cbe
03afc0445e8a1bef020b3 f7df8a0b90f80c3189ec0
105ef8f9237303d038f93 e81ef9f0410207607aebf
dc2e4217cef92084b8ff1 f800fbd800c2083100fc5
0c5fbdfbe0840c1efbc83 ef513e0c0ebbd3f370205
1fbcd22c3c88336efb137 039379fc4133f45f4fcc0
0bcec7fc0ec8d380c9042 ebde3e1c7d3c0c4d46f83
140f45f84fef1c41fcc7b e78d7d1f9cf217e0fbe86
281f3ce0827adb00fce37 f27f0d043dba302ebee79
f7ce420f8d0df892b803b 1bb0b31c7638e733051f8
002f47f08f830bcfb7e3f f32e4a0851380ffec2280