2c 39
38 36
07 3e
35 09
32 09
04 3f
3d 3f
36 31
03 33
05 03
39 0a
05 38
32 01
38 2c
00 01
3e 37
37 37
36 36
3f 3c
03 3c
0b 04
02 04
32 3c
32 0f
38 06
00 31
0c 09
33 34
27 2f
30 35
39 0c
07 37
00 3e
00 2c
3e 04
08 0e
3d 0a
3e 37
30 05
07 03
33 06
30 0d
3e 0a
38 31
3b 3b
06 05
04 3c
0a 00
00 07
3a 3f
35 03
38 3b
03 2b
2e 07
34 09
03 0a
04 34
03 06
37 03
3b 39
0b 38
07 36
31 31
09 38
0b 3f
01 3d
2e 0a
3d 30
0d 30
3a 0a
02 3d
02 2c
09 09
28 3b
3f 07
05 03
0b 08
07 30
3b 30
02 35
2b 0a
10 0d
38 02
3e 37
3b 39
34 00
08 30
3d 31
33 06
08 05
32 38
03 0d
37 07
04 04
08 33
2e 33
3f 02
3c 34
38 3e
37 39
03 3c
35 0d
0d 37
3c 0c
06 33
08 2d
3c 04
06 3f
0a 3b
05 3a
2e 3e
3d 05
31 0b
03 3a
39 30
3d 06
02 05
00 32
30 07
2e 30
0b 3b
01 03
03 0a
08 07
3f 36
32 22
3b 34
02 30
39 3e
0c 0e
37 01
39 00
04 03
38 04
01 3e
38 04
0b 3d
39 37
01 07
07 09
3a 39
3a 3d
00 3b
07 01
07 3b
02 0a
36 0a
21 3f
0f 03
3c 07
33 0c
03 32
36 27
3c 2a
00 3e
0e 30
0c 2f
04 0a
33 2a
00 0b
3b 3c
03 06
3d 08
07 05
0c 3f
3e 38
00 30
0a 3d
06 38
09 06
2f 33
32 38
00 09
2e 3d
39 0a
00 33
3a 03
0a 2c
0b 35
09 08
0a 2d
00 38
07 3f
03 08
34 2a
3b 09
08 35
37 3b
04 02
0e 04
0c 06
03 32
36 33
02 3c
3f 0b
3e 3f
3f 34
00 0b
36 33
04 07
02 34
03 3a
05 0b
37 37
32 2e
02 3d
36 07
37 00
0a 3d
07 3f
03 38
3f 01
2d 06
3f 3a
3a 06
31 07
35 00
39 35
39 05
01 3e
2c 02
2e 01
07 39
2a 07
08 38
03 3f
34 3d
2d 26
3c 3e
06 39
0a 3e
3a 38
0a 3b
02 34
07 3a
05 0a
06 2c
0a 05
07 00
3b 30
06 04
03 08
3f 06
33 08
31 3d
0c 3c
38 3f
07 07
35 3d
33 07
06 01
09 02
06 32
02 06
35 08
28 33
36 3e
3d 05
02 3f
2e 0c
00 38
3b 02
00 3a
01 35
2e 3d
2c 01
37 08
36 02
01 03
2b 01
06 30
05 38
03 3e
03 2e
06 08
00 0e
2d 06
30 09
00 00
39 39
2a 02
34 09
35 08
33 07
05 07
08 03
00 35
33 08
07 05
3c 02
37 39
08 06
06 39
36 39
02 09
0b 37
0a 2b
06 3b
08 3f
08 01
3d 3c
00 2b
04 34
27 0a
05 3c
36 00
3e 05
08 3a
35 05
00 3d
01 35
3e 09
05 36
2b 2e
37 3d
09 06
00 2d
05 31
07 07
03 39
02 03
00 3e
00 3c
3b 36
36 35
3d 3f
0c 31
34 3e
3a 39
06 2e
09 07
3f 3e
05 3d
3e 08
05 00
3a 09
3b 0b
09 36
11 34
02 28
06 07
05 00
3e 3d
04 34
0a 09
0b 02
3b 00
0b 08
05 05
0b 3e
2e 06
3c 09
3c 3d
2e 09
39 38
05 0a
08 3e
08 08
09 31
32 34
3c 03
3e 09
2c 3b
06 07
32 0a
34 01
05 3e
38 3e
29 3e
39 03
3b 34
07 03
3f 36
38 3f
0b 04
09 2b
06 2f
04 09
34 04
3e 0e
0c 36
31 3b
04 32
3f 37
02 35
39 2e
00 3a
05 3f
08 3d
3c 0b
00 2e
01 33
08 01
05 3f
38 34
3c 38
00 3b
3f 0a
03 07
2d 38
35 3d
3b 02
33 39
31 38
3c 09
00 0c
3f 39
00 0d
39 34
07 33
0a 3f
02 08
3f 01
04 06
3f 03
3e 39
07 36
35 39
31 3b
36 03